{"vocab": ["\n", " ", "!", "(", ")", ",", "-", ".", ":", ";", "?", "A", "B", "C", "D", "E", "F", "G", "H", "I", "J", "K", "L", "M", "N", "O", "P", "Q", "R", "S", "T", "U", "V", "W", "X", "Y", "Z", "a", "b", "c", "d", "e", "f", "g", "h", "i", "j", "k", "l", "m", "n", "o", "p", "q", "r", "s", "t", "u", "v", "w", "x", "y", "z", "he", " t", " a", " s", "in", " the", " w", "ou", "re", "nd", "ha", " o", "it", "er", " b", "ed", "ing", " c", " to", " f", " he", "is", " m", "en", " and", "ll", "as", " l", " d", "id", "on", "es", " n", "or", " of", "ic", " h", "ow", " in", "ar", "hat", " it", " sa", " ha", "ly", "an", " g", " p", " y", " was", "at", " I", " be", "ot", "le", " on", " you", "gh", " th", "et", " she", "ld", "ut", "se", "om", " said", "st", "im", "ver", "ght", "ve", " that", " e", " her", "ice", "oo", " A", " as", "ir", "ould", "ent", " u", "out", " r", "her", "ith", "ay", "lice", " T", "ke", " had", " re", " for", " with", " we", " at", "ad", "ight", "ch", " they", " Alice", " not", "ur", " his", "ook", " wh", " W", " k", " so", "ee", "ce", " but", " is", " H", " st", " an", "ri", "ain", "ter", " all", "if", "am", "and", "itt", "al", "hen", " kn", "ill", "ck", " him", "nt", "very", " do", "end", " S", "all", " M", "qu", " them", " up", " P", " su", " me", "ome", " sh", "ound", "ust", " one", "eter", " li", " ne", "pp", " have", "our", " were", " out", "ant", "to", "ion", " this", "lf", "red", "the", " would", "ite", "een", " D", "ore", "ink", "The", "um", "endy", "own", "ont", "ittle", "ea", " see", "ro", "ought", " Peter", "th", " The", "ge", " very", " qu", "ell", " look", " j", "ried", " no", " if", "self", "ind", "ab", "ard", "pt", "el", " could", "ast", " know", "ry", " little", " Wendy", "ong", "ct", "Qu", " what", "gain", " ab", " al", " fr", "ra", " go", " tim", " like", "il", " are", " there", " when", "Queen", "est", "ame", "ul", " did", "ess", " by", " their", " again", " Queen", "un", "ther", "us", "ling", "ough", "ake", " thought", "ear", "ked", "ood", "res", " bo", "other", "ous", " C", " time", "ich", " about", " N", " who", "way", " sp", " ex", " K", "reat", " ch", "ig", " into", " v", " say", "led", " beg", " then", " now", "ers", "au", " down", " went", " from", " thing", "li", "king", "hing", " been", " cried", " B", "dd", " or", " way", "hed", " my", " your", " off", "han", "You", "one", " other", "ep", " tw", " only", "ull", "ack", "nder", " its", " which", "pe", "ild", " get", " hand", " think", " sha", " more", " J", "ose", "me", "ock", "ort", " man", "It", " fa", "ather", " too", "irst", "ne", " dont", "ven", "ist", " gr", " af", " just", " R"], "merges": [["h", "e"], [" ", "t"], [" ", "a"], [" ", "s"], ["i", "n"], [" t", "he"], [" ", "w"], ["o", "u"], ["r", "e"], ["n", "d"], ["h", "a"], [" ", "o"], ["i", "t"], ["e", "r"], [" ", "b"], ["e", "d"], ["in", "g"], [" ", "c"], [" t", "o"], [" ", "f"], [" ", "he"], ["i", "s"], [" ", "m"], ["e", "n"], [" a", "nd"], ["l", "l"], ["a", "s"], [" ", "l"], [" ", "d"], ["i", "d"], ["o", "n"], ["e", "s"], [" ", "n"], ["o", "r"], [" o", "f"], ["i", "c"], [" ", "h"], ["o", "w"], [" ", "in"], ["a", "r"], ["ha", "t"], [" ", "it"], [" s", "a"], [" ", "ha"], ["l", "y"], ["a", "n"], [" ", "g"], [" ", "p"], [" ", "y"], [" w", "as"], ["a", "t"], [" ", "I"], [" b", "e"], ["o", "t"], ["l", "e"], [" o", "n"], [" y", "ou"], ["g", "h"], [" t", "h"], ["e", "t"], [" s", "he"], ["l", "d"], ["u", "t"], ["s", "e"], ["o", "m"], [" sa", "id"], ["s", "t"], ["i", "m"], ["v", "er"], ["gh", "t"], ["v", "e"], [" t", "hat"], [" ", "e"], [" he", "r"], ["ic", "e"], ["o", "o"], [" ", "A"], [" a", "s"], ["i", "r"], ["ou", "ld"], ["en", "t"], [" ", "u"], ["ou", "t"], [" ", "r"], ["he", "r"], ["it", "h"], ["a", "y"], ["l", "ice"], [" ", "T"], ["k", "e"], [" ha", "d"], [" ", "re"], [" f", "or"], [" w", "ith"], [" w", "e"], [" a", "t"], ["a", "d"], ["i", "ght"], ["c", "h"], [" the", "y"], [" A", "lice"], [" n", "ot"], ["u", "r"], [" h", "is"], ["oo", "k"], [" w", "h"], [" ", "W"], [" ", "k"], [" s", "o"], ["e", "e"], ["c", "e"], [" b", "ut"], [" ", "is"], [" ", "H"], [" s", "t"], [" a", "n"], ["r", "i"], ["a", "in"], ["t", "er"], [" a", "ll"], ["i", "f"], ["a", "m"], ["a", "nd"], ["it", "t"], ["a", "l"], ["he", "n"], [" k", "n"], ["i", "ll"], ["c", "k"], [" h", "im"], ["n", "t"], ["ver", "y"], [" d", "o"], ["e", "nd"], [" ", "S"], ["a", "ll"], [" ", "M"], ["q", "u"], [" the", "m"], [" u", "p"], [" ", "P"], [" s", "u"], [" m", "e"], ["om", "e"], [" s", "h"], ["ou", "nd"], ["u", "st"], [" on", "e"], ["et", "er"], [" l", "i"], [" n", "e"], ["p", "p"], [" ha", "ve"], ["ou", "r"], [" we", "re"], [" ", "out"], ["an", "t"], ["t", "o"], ["i", "on"], [" th", "is"], ["l", "f"], ["re", "d"], ["t", "he"], [" w", "ould"], ["it", "e"], ["e", "en"], [" ", "D"], ["o", "re"], ["in", "k"], ["T", "he"], ["u", "m"], ["end", "y"], ["ow", "n"], ["on", "t"], ["itt", "le"], ["e", "a"], [" s", "ee"], ["r", "o"], ["ou", "ght"], [" P", "eter"], ["t", "h"], [" T", "he"], ["g", "e"], [" ", "very"], [" ", "qu"], ["e", "ll"], [" l", "ook"], [" ", "j"], ["ri", "ed"], [" n", "o"], [" ", "if"], ["se", "lf"], ["in", "d"], ["a", "b"], ["ar", "d"], ["p", "t"], ["e", "l"], [" c", "ould"], ["as", "t"], [" kn", "ow"], ["r", "y"], [" l", "ittle"], [" W", "endy"], ["on", "g"], ["c", "t"], ["Q", "u"], [" w", "hat"], ["g", "ain"], [" a", "b"], [" a", "l"], [" f", "r"], ["r", "a"], [" g", "o"], [" t", "im"], [" li", "ke"], ["i", "l"], [" a", "re"], [" the", "re"], [" w", "hen"], ["Qu", "een"], ["es", "t"], ["am", "e"], ["u", "l"], [" d", "id"], ["es", "s"], [" b", "y"], [" the", "ir"], [" a", "gain"], [" ", "Queen"], ["u", "n"], ["t", "her"], ["u", "s"], ["l", "ing"], ["ou", "gh"], ["a", "ke"], [" th", "ought"], ["e", "ar"], ["k", "ed"], ["oo", "d"], ["re", "s"], [" b", "o"], ["ot", "her"], ["ou", "s"], [" ", "C"], [" tim", "e"], ["ic", "h"], [" ab", "out"], [" ", "N"], [" wh", "o"], ["w", "ay"], [" s", "p"], [" e", "x"], [" ", "K"], ["re", "at"], [" c", "h"], ["i", "g"], [" in", "to"], [" ", "v"], [" sa", "y"], ["l", "ed"], [" be", "g"], [" the", "n"], [" n", "ow"], ["er", "s"], ["a", "u"], [" d", "own"], [" w", "ent"], [" fr", "om"], [" th", "ing"], ["l", "i"], ["k", "ing"], ["h", "ing"], [" be", "en"], [" c", "ried"], [" ", "B"], ["d", "d"], [" o", "r"], [" w", "ay"], ["he", "d"], [" m", "y"], [" you", "r"], [" of", "f"], ["ha", "n"], ["Y", "ou"], ["on", "e"], [" o", "ther"], ["e", "p"], [" t", "w"], [" on", "ly"], ["u", "ll"], ["a", "ck"], ["nd", "er"], [" it", "s"], [" wh", "ich"], ["p", "e"], ["i", "ld"], [" g", "et"], [" ha", "nd"], [" th", "ink"], [" s", "ha"], [" m", "ore"], [" ", "J"], ["o", "se"], ["m", "e"], ["o", "ck"], ["or", "t"], [" m", "an"], ["I", "t"], [" f", "a"], ["at", "her"], [" to", "o"], ["ir", "st"], ["n", "e"], [" d", "ont"], ["v", "en"], ["is", "t"], [" g", "r"], [" a", "f"], [" j", "ust"], [" ", "R"]]}